unsigned char g_temp_model_data[] = {
  0x1c, 0x00, 0x00, 0x00, 0x54, 0x46, 0x4c, 0x33, 0x00, 0x00, 0x12, 0x00,
  0x1c, 0x00, 0x04, 0x00, 0x08, 0x00, 0x0c, 0x00, 0x10, 0x00, 0x14, 0x00,
  0x00, 0x00, 0x18, 0x00, 0x12, 0x00, 0x00, 0x00, 0x03, 0x00, 0x00, 0x00,
  0x40, 0x07, 0x00, 0x00, 0x18, 0x00, 0x00, 0x00, 0x1c, 0x00, 0x00, 0x00,
  0x2c, 0x00, 0x00, 0x00, 0x04, 0x00, 0x00, 0x00, 0x01, 0x00, 0x00, 0x00,
  0xbc, 0x00, 0x00, 0x00, 0x01, 0x00, 0x00, 0x00, 0xe4, 0x00, 0x00, 0x00,
  0x0f, 0x00, 0x00, 0x00, 0x54, 0x4f, 0x43, 0x4f, 0x20, 0x43, 0x6f, 0x6e,
  0x76, 0x65, 0x72, 0x74, 0x65, 0x64, 0x2e, 0x00, 0x0c, 0x00, 0x00, 0x00,
  0x88, 0x00, 0x00, 0x00, 0x7c, 0x00, 0x00, 0x00, 0x68, 0x00, 0x00, 0x00,
  0x54, 0x00, 0x00, 0x00, 0x48, 0x00, 0x00, 0x00, 0x3c, 0x00, 0x00, 0x00,
  0x34, 0x00, 0x00, 0x00, 0x28, 0x00, 0x00, 0x00, 0x20, 0x00, 0x00, 0x00,
  0x18, 0x00, 0x00, 0x00, 0x10, 0x00, 0x00, 0x00, 0x04, 0x00, 0x00, 0x00,
  0xb6, 0xff, 0xff, 0xff, 0x58, 0x00, 0x00, 0x00, 0xc8, 0xf9, 0xff, 0xff,
  0xcc, 0xf9, 0xff, 0xff, 0xd0, 0xf9, 0xff, 0xff, 0xca, 0xff, 0xff, 0xff,
  0xdc, 0x01, 0x00, 0x00, 0xdc, 0xf9, 0xff, 0xff, 0xd6, 0xff, 0xff, 0xff,
  0x90, 0x02, 0x00, 0x00, 0xde, 0xff, 0xff, 0xff, 0x28, 0x04, 0x00, 0x00,
  0xf6, 0xff, 0xff, 0xff, 0xe8, 0x04, 0x00, 0x00, 0x00, 0x00, 0x06, 0x00,
  0x0a, 0x00, 0x04, 0x00, 0x06, 0x00, 0x00, 0x00, 0x48, 0x05, 0x00, 0x00,
  0x00, 0x00, 0x06, 0x00, 0x08, 0x00, 0x04, 0x00, 0x06, 0x00, 0x00, 0x00,
  0xa0, 0x05, 0x00, 0x00, 0x18, 0xfa, 0xff, 0xff, 0x05, 0x00, 0x00, 0x00,
  0x31, 0x2e, 0x35, 0x2e, 0x30, 0x00, 0x00, 0x00, 0x1c, 0xff, 0xff, 0xff,
  0x08, 0x00, 0x00, 0x00, 0x0b, 0x00, 0x00, 0x00, 0x13, 0x00, 0x00, 0x00,
  0x6d, 0x69, 0x6e, 0x5f, 0x72, 0x75, 0x6e, 0x74, 0x69, 0x6d, 0x65, 0x5f,
  0x76, 0x65, 0x72, 0x73, 0x69, 0x6f, 0x6e, 0x00, 0x0c, 0x00, 0x14, 0x00,
  0x04, 0x00, 0x08, 0x00, 0x0c, 0x00, 0x10, 0x00, 0x0c, 0x00, 0x00, 0x00,
  0x20, 0x00, 0x00, 0x00, 0x14, 0x00, 0x00, 0x00, 0x08, 0x00, 0x00, 0x00,
  0x54, 0x05, 0x00, 0x00, 0x01, 0x00, 0x00, 0x00, 0x00, 0x00, 0x00, 0x00,
  0x01, 0x00, 0x00, 0x00, 0x01, 0x00, 0x00, 0x00, 0x0a, 0x00, 0x00, 0x00,
  0x28, 0x00, 0x00, 0x00, 0x58, 0x00, 0x00, 0x00, 0x90, 0x01, 0x00, 0x00,
  0xe4, 0x00, 0x00, 0x00, 0x48, 0x01, 0x00, 0x00, 0x24, 0x03, 0x00, 0x00,
  0x00, 0x04, 0x00, 0x00, 0x94, 0x00, 0x00, 0x00, 0x50, 0x04, 0x00, 0x00,
  0xcc, 0x04, 0x00, 0x00, 0x46, 0xfb, 0xff, 0xff, 0x20, 0x00, 0x00, 0x00,
  0x0a, 0x00, 0x00, 0x00, 0x08, 0x00, 0x00, 0x00, 0x20, 0x00, 0x00, 0x00,
  0x08, 0x00, 0x00, 0x00, 0x49, 0x64, 0x65, 0x6e, 0x74, 0x69, 0x74, 0x79,
  0x00, 0x00, 0x00, 0x00, 0x02, 0x00, 0x00, 0x00, 0x01, 0x00, 0x00, 0x00,
  0x01, 0x00, 0x00, 0x00, 0xd8, 0xfa, 0xff, 0xff, 0x7a, 0xfb, 0xff, 0xff,
  0x20, 0x00, 0x00, 0x00, 0x09, 0x00, 0x00, 0x00, 0x08, 0x00, 0x00, 0x00,
  0x28, 0x00, 0x00, 0x00, 0x0b, 0x00, 0x00, 0x00, 0x64, 0x65, 0x6e, 0x73,
  0x65, 0x5f, 0x69, 0x6e, 0x70, 0x75, 0x74, 0x00, 0x02, 0x00, 0x00, 0x00,
  0x01, 0x00, 0x00, 0x00, 0x0a, 0x00, 0x00, 0x00, 0x08, 0x00, 0x0c, 0x00,
  0x04, 0x00, 0x08, 0x00, 0x08, 0x00, 0x00, 0x00, 0x10, 0x00, 0x00, 0x00,
  0x04, 0x00, 0x00, 0x00, 0x01, 0x00, 0x00, 0x00, 0x00, 0x00, 0x7f, 0x43,
  0x01, 0x00, 0x00, 0x00, 0x00, 0x00, 0x00, 0x00, 0xce, 0xfb, 0xff, 0xff,
  0x2c, 0x00, 0x00, 0x00, 0x08, 0x00, 0x00, 0x00, 0x08, 0x00, 0x00, 0x00,
  0x2c, 0x00, 0x00, 0x00, 0x17, 0x00, 0x00, 0x00, 0x73, 0x65, 0x71, 0x75,
  0x65, 0x6e, 0x74, 0x69, 0x61, 0x6c, 0x2f, 0x64, 0x65, 0x6e, 0x73, 0x65,
  0x5f, 0x31, 0x2f, 0x52, 0x65, 0x6c, 0x75, 0x00, 0x02, 0x00, 0x00, 0x00,
  0x01, 0x00, 0x00, 0x00, 0x04, 0x00, 0x00, 0x00, 0x6c, 0xfb, 0xff, 0xff,
  0x0e, 0xfc, 0xff, 0xff, 0x34, 0x00, 0x00, 0x00, 0x07, 0x00, 0x00, 0x00,
  0x08, 0x00, 0x00, 0x00, 0x30, 0x00, 0x00, 0x00, 0x1c, 0x00, 0x00, 0x00,
  0x73, 0x65, 0x71, 0x75, 0x65, 0x6e, 0x74, 0x69, 0x61, 0x6c, 0x2f, 0x64,
  0x65, 0x6e, 0x73, 0x65, 0x2f, 0x4d, 0x61, 0x74, 0x4d, 0x75, 0x6c, 0x5f,
  0x62, 0x69, 0x61, 0x73, 0x00, 0x00, 0x00, 0x00, 0x01, 0x00, 0x00, 0x00,
  0x08, 0x00, 0x00, 0x00, 0xb0, 0xfb, 0xff, 0xff, 0x20, 0x00, 0x00, 0x00,
  0x00, 0x00, 0x00, 0x00, 0x00, 0x00, 0x00, 0x00, 0xfb, 0x80, 0xb1, 0x3d,
  0x00, 0x00, 0x00, 0x00, 0x48, 0x27, 0xb6, 0xbb, 0x9d, 0x5a, 0xc3, 0x3d,
  0x00, 0x00, 0x00, 0x00, 0x00, 0x00, 0x00, 0x00, 0x76, 0xfc, 0xff, 0xff,
  0x2c, 0x00, 0x00, 0x00, 0x06, 0x00, 0x00, 0x00, 0x08, 0x00, 0x00, 0x00,
  0x2c, 0x00, 0x00, 0x00, 0x15, 0x00, 0x00, 0x00, 0x73, 0x65, 0x71, 0x75,
  0x65, 0x6e, 0x74, 0x69, 0x61, 0x6c, 0x2f, 0x64, 0x65, 0x6e, 0x73, 0x65,
  0x2f, 0x52, 0x65, 0x6c, 0x75, 0x00, 0x00, 0x00, 0x02, 0x00, 0x00, 0x00,
  0x01, 0x00, 0x00, 0x00, 0x08, 0x00, 0x00, 0x00, 0x14, 0xfc, 0xff, 0xff,
  0xb6, 0xfc, 0xff, 0xff, 0x48, 0x00, 0x00, 0x00, 0x05, 0x00, 0x00, 0x00,
  0x08, 0x00, 0x00, 0x00, 0x48, 0x00, 0x00, 0x00, 0x30, 0x00, 0x00, 0x00,
  0x73, 0x65, 0x71, 0x75, 0x65, 0x6e, 0x74, 0x69, 0x61, 0x6c, 0x2f, 0x64,
  0x65, 0x6e, 0x73, 0x65, 0x2f, 0x4d, 0x61, 0x74, 0x4d, 0x75, 0x6c, 0x2f,
  0x52, 0x65, 0x61, 0x64, 0x56, 0x61, 0x72, 0x69, 0x61, 0x62, 0x6c, 0x65,
  0x4f, 0x70, 0x2f, 0x74, 0x72, 0x61, 0x6e, 0x73, 0x70, 0x6f, 0x73, 0x65,
  0x00, 0x00, 0x00, 0x00, 0x02, 0x00, 0x00, 0x00, 0x08, 0x00, 0x00, 0x00,
  0x0a, 0x00, 0x00, 0x00, 0x70, 0xfc, 0xff, 0xff, 0x40, 0x01, 0x00, 0x00,
  0x2c, 0xae, 0xf0, 0xbe, 0x68, 0xd3, 0x07, 0xbf, 0xb7, 0xe4, 0x92, 0xbe,
  0x9c, 0xbe, 0x8f, 0xbe, 0x20, 0xd5, 0xf4, 0xbe, 0x60, 0xc7, 0xb1, 0xbc,
  0x0d, 0xda, 0x10, 0xbf, 0x68, 0x37, 0xfd, 0x3e, 0x1a, 0x01, 0xe8, 0xbe,
  0x78, 0x73, 0xd8, 0x3e, 0xe0, 0xbd, 0x81, 0x3e, 0x88, 0xc3, 0x78, 0x3e,
  0x75, 0x53, 0xf6, 0xbe, 0x70, 0x55, 0x7d, 0x3d, 0x54, 0xad, 0xf7, 0xbd,
  0xf8, 0x75, 0x39, 0xbe, 0x74, 0x23, 0x3a, 0x3e, 0x77, 0x54, 0x01, 0xbf,
  0xfc, 0x39, 0xa9, 0xbe, 0x8a, 0xe5, 0x10, 0x3f, 0x78, 0x13, 0xa9, 0x3d,
  0x6d, 0xaf, 0xcf, 0x3e, 0x8a, 0x77, 0xea, 0x3e, 0xb1, 0xef, 0xaf, 0xbe,
  0xec, 0xda, 0x43, 0x3d, 0xb8, 0xb9, 0x02, 0x3f, 0xef, 0x49, 0x52, 0xbe,
  0xb3, 0xa3, 0xb0, 0xbd, 0x75, 0x78, 0xd1, 0x3e, 0xec, 0xff, 0x23, 0x3f,
  0x48, 0x43, 0xfe, 0xbe, 0x28, 0x36, 0xd7, 0x3e, 0xe7, 0x4c, 0x87, 0xbe,
  0xa6, 0x19, 0xd5, 0xbe, 0x40, 0x87, 0xe9, 0x3e, 0xc4, 0x24, 0xf6, 0x3e,
  0x02, 0xcd, 0x47, 0xbe, 0x89, 0x24, 0x0a, 0xbf, 0x83, 0x19, 0xfc, 0xbe,
  0x13, 0xa5, 0x86, 0xbe, 0xc4, 0x4e, 0x0a, 0xbf, 0xf1, 0x19, 0xad, 0xbc,
  0x51, 0x2e, 0xcb, 0xbd, 0xc4, 0xcf, 0xaa, 0xbe, 0x3a, 0xe2, 0x50, 0x3e,
  0x6a, 0x20, 0x98, 0x3e, 0x1a, 0xc2, 0x0a, 0xbf, 0xee, 0x38, 0x64, 0x3e,
  0x02, 0xce, 0x76, 0x3e, 0xe5, 0x1a, 0x03, 0x3f, 0x2c, 0x78, 0xa1, 0x3d,
  0x27, 0x22, 0xe3, 0x3e, 0xb5, 0xd0, 0x18, 0x3e, 0x16, 0xf4, 0xef, 0x3e,
  0x12, 0x0e, 0x12, 0x3e, 0x88, 0xf5, 0x69, 0xbe, 0x3c, 0xcc, 0x53, 0xbe,
  0xe6, 0x90, 0xfc, 0x3e, 0x26, 0x5d, 0x5e, 0x3e, 0x80, 0x5c, 0x5c, 0xbe,
  0xa4, 0xc1, 0xaa, 0xbd, 0xe0, 0xe9, 0x37, 0x3d, 0xf0, 0x80, 0xa8, 0x3e,
  0x62, 0x71, 0x67, 0xbe, 0x00, 0x52, 0xdd, 0xbc, 0xa8, 0x40, 0xab, 0xbe,
  0xac, 0x8c, 0xdf, 0xbe, 0x10, 0xd2, 0x30, 0x3e, 0xd6, 0xfd, 0xb4, 0xbe,
  0x38, 0x99, 0xb9, 0xbe, 0xca, 0xd6, 0xfb, 0xbe, 0x45, 0x77, 0xbf, 0xbe,
  0xfa, 0x32, 0xee, 0xbe, 0x60, 0xbc, 0x90, 0x3c, 0xae, 0xe6, 0xc2, 0xbe,
  0xc0, 0x56, 0x75, 0xbd, 0x40, 0xee, 0xe5, 0x3c, 0xa0, 0x97, 0x59, 0x3d,
  0x54, 0xf1, 0xf5, 0xbe, 0xf8, 0x69, 0xe7, 0x3d, 0x56, 0xfe, 0xff, 0xff,
  0x48, 0x00, 0x00, 0x00, 0x04, 0x00, 0x00, 0x00, 0x08, 0x00, 0x00, 0x00,
  0x48, 0x00, 0x00, 0x00, 0x32, 0x00, 0x00, 0x00, 0x73, 0x65, 0x71, 0x75,
  0x65, 0x6e, 0x74, 0x69, 0x61, 0x6c, 0x2f, 0x64, 0x65, 0x6e, 0x73, 0x65,
  0x5f, 0x31, 0x2f, 0x4d, 0x61, 0x74, 0x4d, 0x75, 0x6c, 0x2f, 0x52, 0x65,
  0x61, 0x64, 0x56, 0x61, 0x72, 0x69, 0x61, 0x62, 0x6c, 0x65, 0x4f, 0x70,
  0x2f, 0x74, 0x72, 0x61, 0x6e, 0x73, 0x70, 0x6f, 0x73, 0x65, 0x00, 0x00,
  0x02, 0x00, 0x00, 0x00, 0x04, 0x00, 0x00, 0x00, 0x08, 0x00, 0x00, 0x00,
  0x10, 0xfe, 0xff, 0xff, 0x80, 0x00, 0x00, 0x00, 0xf3, 0x0c, 0x1a, 0x3f,
  0x10, 0x53, 0xd9, 0x3d, 0x68, 0xc7, 0x48, 0x3e, 0xd6, 0xdd, 0x63, 0xbe,
  0xe2, 0xa6, 0x07, 0xbf, 0x86, 0x47, 0x28, 0xbf, 0xf2, 0x2a, 0xf2, 0xbe,
  0x41, 0x4f, 0xed, 0xbe, 0x3e, 0x42, 0x64, 0xbe, 0x56, 0xca, 0xba, 0x3e,
  0x06, 0x6c, 0x35, 0x3e, 0x6e, 0xc2, 0x8b, 0x3e, 0xbe, 0x5c, 0x10, 0xbf,
  0x63, 0x1e, 0x26, 0x3f, 0xae, 0x1d, 0xc0, 0x3e, 0xd0, 0xb8, 0x00, 0x3e,
  0x0c, 0xc1, 0x5d, 0xbe, 0x64, 0xbd, 0x50, 0x3e, 0xb2, 0xf3, 0x16, 0xbf,
  0xe8, 0xfa, 0xc3, 0xbe, 0x00, 0xef, 0x43, 0x3b, 0x6d, 0x02, 0x27, 0xbf,
  0xe5, 0x90, 0x04, 0x3f, 0xb9, 0xfb, 0x17, 0xbf, 0xe2, 0x4a, 0xce, 0x3e,
  0x93, 0xfd, 0x24, 0xbf, 0xb2, 0x5d, 0x7c, 0xbe, 0x81, 0xb4, 0x24, 0x3f,
  0x00, 0x55, 0x9f, 0xbd, 0x4c, 0x07, 0x0e, 0xbf, 0xac, 0xae, 0x31, 0xbe,
  0x1c, 0xf9, 0x81, 0xbe, 0x36, 0xff, 0xff, 0xff, 0x34, 0x00, 0x00, 0x00,
  0x03, 0x00, 0x00, 0x00, 0x08, 0x00, 0x00, 0x00, 0x30, 0x00, 0x00, 0x00,
  0x1e, 0x00, 0x00, 0x00, 0x73, 0x65, 0x71, 0x75, 0x65, 0x6e, 0x74, 0x69,
  0x61, 0x6c, 0x2f, 0x64, 0x65, 0x6e, 0x73, 0x65, 0x5f, 0x31, 0x2f, 0x4d,
  0x61, 0x74, 0x4d, 0x75, 0x6c, 0x5f, 0x62, 0x69, 0x61, 0x73, 0x00, 0x00,
  0x01, 0x00, 0x00, 0x00, 0x04, 0x00, 0x00, 0x00, 0xd8, 0xfe, 0xff, 0xff,
  0x10, 0x00, 0x00, 0x00, 0x00, 0x22, 0x85, 0xbc, 0x26, 0xed, 0xce, 0x3d,
  0x00, 0x00, 0x00, 0x00, 0x00, 0x00, 0x00, 0x00, 0x8e, 0xff, 0xff, 0xff,
  0x48, 0x00, 0x00, 0x00, 0x02, 0x00, 0x00, 0x00, 0x08, 0x00, 0x00, 0x00,
  0x48, 0x00, 0x00, 0x00, 0x32, 0x00, 0x00, 0x00, 0x73, 0x65, 0x71, 0x75,
  0x65, 0x6e, 0x74, 0x69, 0x61, 0x6c, 0x2f, 0x64, 0x65, 0x6e, 0x73, 0x65,
  0x5f, 0x32, 0x2f, 0x4d, 0x61, 0x74, 0x4d, 0x75, 0x6c, 0x2f, 0x52, 0x65,
  0x61, 0x64, 0x56, 0x61, 0x72, 0x69, 0x61, 0x62, 0x6c, 0x65, 0x4f, 0x70,
  0x2f, 0x74, 0x72, 0x61, 0x6e, 0x73, 0x70, 0x6f, 0x73, 0x65, 0x00, 0x00,
  0x02, 0x00, 0x00, 0x00, 0x01, 0x00, 0x00, 0x00, 0x04, 0x00, 0x00, 0x00,
  0x48, 0xff, 0xff, 0xff, 0x10, 0x00, 0x00, 0x00, 0x5c, 0xd2, 0xa9, 0xbe,
  0xb2, 0x99, 0x51, 0x3f, 0xc8, 0x9d, 0xe8, 0xbd, 0xa0, 0x16, 0xa6, 0x3d,
  0x00, 0x00, 0x0e, 0x00, 0x14, 0x00, 0x04, 0x00, 0x00, 0x00, 0x08, 0x00,
  0x0c, 0x00, 0x10, 0x00, 0x0e, 0x00, 0x00, 0x00, 0x34, 0x00, 0x00, 0x00,
  0x01, 0x00, 0x00, 0x00, 0x08, 0x00, 0x00, 0x00, 0x30, 0x00, 0x00, 0x00,
  0x1e, 0x00, 0x00, 0x00, 0x73, 0x65, 0x71, 0x75, 0x65, 0x6e, 0x74, 0x69,
  0x61, 0x6c, 0x2f, 0x64, 0x65, 0x6e, 0x73, 0x65, 0x5f, 0x32, 0x2f, 0x4d,
  0x61, 0x74, 0x4d, 0x75, 0x6c, 0x5f, 0x62, 0x69, 0x61, 0x73, 0x00, 0x00,
  0x01, 0x00, 0x00, 0x00, 0x01, 0x00, 0x00, 0x00, 0xb0, 0xff, 0xff, 0xff,
  0x04, 0x00, 0x00, 0x00, 0x82, 0x20, 0xc7, 0x3d, 0x03, 0x00, 0x00, 0x00,
  0x98, 0x00, 0x00, 0x00, 0x44, 0x00, 0x00, 0x00, 0x04, 0x00, 0x00, 0x00,
  0x88, 0xff, 0xff, 0xff, 0x00, 0x00, 0x00, 0x08, 0x1c, 0x00, 0x00, 0x00,
  0x10, 0x00, 0x00, 0x00, 0x28, 0x00, 0x00, 0x00, 0x04, 0x00, 0x00, 0x00,
  0x00, 0x00, 0x00, 0x00, 0x01, 0x00, 0x00, 0x00, 0x00, 0x00, 0x00, 0x00,
  0x03, 0x00, 0x00, 0x00, 0x07, 0x00, 0x00, 0x00, 0x08, 0x00, 0x00, 0x00,
  0x09, 0x00, 0x00, 0x00, 0x04, 0x00, 0x04, 0x00, 0x04, 0x00, 0x00, 0x00,
  0xc4, 0xff, 0xff, 0xff, 0x00, 0x00, 0x00, 0x08, 0x1c, 0x00, 0x00, 0x00,
  0x10, 0x00, 0x00, 0x00, 0x24, 0x00, 0x00, 0x00, 0x04, 0x00, 0x00, 0x00,
  0x00, 0x00, 0x00, 0x00, 0x01, 0x00, 0x00, 0x00, 0x07, 0x00, 0x00, 0x00,
  0x03, 0x00, 0x00, 0x00, 0x04, 0x00, 0x00, 0x00, 0x05, 0x00, 0x00, 0x00,
  0x06, 0x00, 0x00, 0x00, 0x8e, 0xff, 0xff, 0xff, 0x00, 0x00, 0x00, 0x01,
  0x14, 0x00, 0x18, 0x00, 0x00, 0x00, 0x08, 0x00, 0x0c, 0x00, 0x07, 0x00,
  0x10, 0x00, 0x00, 0x00, 0x00, 0x00, 0x14, 0x00, 0x14, 0x00, 0x00, 0x00,
  0x00, 0x00, 0x00, 0x08, 0x1c, 0x00, 0x00, 0x00, 0x10, 0x00, 0x00, 0x00,
  0x24, 0x00, 0x00, 0x00, 0x04, 0x00, 0x00, 0x00, 0x00, 0x00, 0x00, 0x00,
  0x01, 0x00, 0x00, 0x00, 0x04, 0x00, 0x00, 0x00, 0x03, 0x00, 0x00, 0x00,
  0x01, 0x00, 0x00, 0x00, 0x02, 0x00, 0x00, 0x00, 0x03, 0x00, 0x00, 0x00,
  0xde, 0xff, 0xff, 0xff, 0x00, 0x00, 0x00, 0x01, 0x01, 0x00, 0x00, 0x00,
  0x04, 0x00, 0x00, 0x00, 0xfa, 0xff, 0xff, 0xff, 0x00, 0x09, 0x06, 0x00,
  0x06, 0x00, 0x05, 0x00, 0x06, 0x00, 0x00, 0x00, 0x00, 0x09, 0x06, 0x00,
  0x08, 0x00, 0x07, 0x00, 0x06, 0x00, 0x00, 0x00, 0x00, 0x00, 0x00, 0x09
};
unsigned int g_temp_model_data_len = 1932;
